<?xml version="1.0"?>
<opencv_storage>
<stage16>
  <maxWeakCount>10</maxWeakCount>
  <stageThreshold>-5.9823781251907349e-01</stageThreshold>
  <weakClassifiers>
    <_>
      <internalNodes>
        0 -1 343588 3.4952431917190552e-02</internalNodes>
      <leafValues>
        -2.9182878136634827e-01 5.8064514398574829e-01</leafValues></_>
    <_>
      <internalNodes>
        0 -1 579035 -1.4070738106966019e-03</internalNodes>
      <leafValues>
        3.2117187976837158e-01 -3.7818497419357300e-01</leafValues></_>
    <_>
      <internalNodes>
        0 -1 635014 -9.7148222848773003e-03</internalNodes>
      <leafValues>
        1. -1.6105706989765167e-01</leafValues></_>
    <_>
      <internalNodes>
        0 -1 170779 -7.8116573393344879e-02</internalNodes>
      <leafValues>
        4.5059937238693237e-01 -2.6588672399520874e-01</leafValues></_>
    <_>
      <internalNodes>
        0 -1 335657 -3.1571917235851288e-02</internalNodes>
      <leafValues>
        4.8344695568084717e-01 -3.0070778727531433e-01</leafValues></_>
    <_>
      <internalNodes>
        0 -1 560399 -4.5419852540362626e-05</internalNodes>
      <leafValues>
        -3.1402382254600525e-01 4.4152691960334778e-01</leafValues></_>
    <_>
      <internalNodes>
        0 -1 455082 -6.9812405854463577e-05</internalNodes>
      <leafValues>
        -5.3691846132278442e-01 2.6822906732559204e-01</leafValues></_>
    <_>
      <internalNodes>
        0 -1 97234 -2.2792210074840114e-05</internalNodes>
      <leafValues>
        4.4923838973045349e-01 -3.2950499653816223e-01</leafValues></_>
    <_>
      <internalNodes>
        0 -1 284046 -7.4684404535219073e-04</internalNodes>
      <leafValues>
        -6.8085008859634399e-01 2.1413999795913696e-01</leafValues></_>
    <_>
      <internalNodes>
        0 -1 493168 1.8609365215525031e-03</internalNodes>
      <leafValues>
        -3.1801617145538330e-01 4.5321512222290039e-01</leafValues></_></weakClassifiers></stage16>
</opencv_storage>
